memory_initialization_radix=10;
memory_initialization_vector=
-69,
-26,
50,
-49,
-12,
-41,
61,
40,
35,
7,
-18,
10,
-34,
-64,
54,
24,
-62,
-20,
-77,
4,
-24,
76,
4,
-81,
35,
-51,
-51,
35,
-28,
1,
-69,
-27,
18,
-22,
-77,
-49,
45,
-28,
31,
42,
-104,
21,
-41,
-72,
0,
21,
47,
47,
-39,
-47,
-15,
11,
-10,
-49,
-3,
-49,
-45,
-31,
-38,
-30,
75,
10,
-38,
-18,
27,
-34,
-98,
-8,
-75,
-25,
20,
-33,
5,
38,
68,
52,
-5,
2,
30,
-43,
-15,
23,
-69,
-23,
-30,
13,
-32,
-5,
-58,
-21,
9,
-2,
30,
-20,
-60,
32,
-14,
-24,
-2,
6,
22,
17,
-23,
-65,
-80,
-8,
38,
-32,
-15,
13,
23,
18,
-1,
-38,
-68,
2,
65,
-86,
-43,
29,
-38,
50,
-69,
-127,
-46,
6,
-12,
24;