memory_initialization_radix=10;
memory_initialization_vector=
49,
-8,
38,
57,
30,
42,
10,
11,
-23,
-32,
90,
7,
95,
-20,
19,
59,
26,
6,
-8,
77,
-45,
17,
-57,
-31,
-64,
-10,
31,
-52,
44,
-53,
-20,
55,
-21,
87,
22,
55,
40,
-25,
13,
-8,
-51,
44,
-47,
58,
-25,
25,
33,
-50,
-84,
-38,
58,
-32,
38,
-17,
27,
68,
32,
127,
95,
-41,
-93,
44,
35,
63;