memory_initialization_radix=10;
memory_initialization_vector=
-39,
11,
32,
17,
-26,
-4,
0,
-68,
-28,
-25,
-2,
28,
-4,
17,
-4,
6,
3,
45,
47,
-14,
14,
-15,
7,
34,
6,
13,
-18,
3,
50,
16,
1,
-29,
44,
29,
-10,
-27,
34,
17,
12,
17,
-10,
20,
-26,
15,
2,
11,
-15,
57,
-25,
-8,
45,
-26,
10,
-8,
15,
61,
23,
-58,
-11,
3,
38,
5,
-7,
-26,
1,
23,
-7,
-4,
-16,
10,
-12,
11,
16,
-51,
34,
17,
-3,
4,
-9,
-6,
-13,
17,
-14,
2,
-10,
22,
18,
7,
8,
6,
-25,
13,
-3,
9,
-71,
15,
-6,
22,
7,
19,
-2,
11,
17,
24,
5,
10,
-58,
-84,
-27,
-5,
-26,
-3,
-49,
-19,
-12,
48,
9,
-50,
-35,
-20,
-20,
3,
14,
-26,
-20,
-8,
-14,
24,
-15,
33,
-5,
-45,
36,
-29,
46,
-3,
6,
-6,
14,
-6,
11,
-49,
18,
19,
-35,
26,
21,
25,
0,
-20,
7,
-22,
15,
-15,
-18,
-7,
-1,
2,
-4,
-39,
2,
38,
-21,
27,
11,
-28,
-19,
4,
-3,
1,
-15,
-28,
16,
-13,
-33,
63,
15,
26,
6,
7,
-12,
-9,
-14,
-13,
5,
-12,
14,
2,
3,
22,
-52,
0,
-6,
-24,
23,
23,
13,
22,
-15,
-21,
-63,
-34,
-5,
22,
-18,
8,
1,
28,
20,
-10,
14,
-16,
-11,
31,
39,
4,
-2,
15,
-40,
-17,
-63,
-6,
-32,
-12,
25,
40,
-3,
-12,
-1,
49,
-29,
-22,
18,
-34,
-28,
-37,
-13,
-2,
31,
30,
4,
-29,
-22,
17,
67,
-11,
-35,
4,
-30,
31,
-2,
47,
21,
-17,
17,
-7,
21,
32,
19,
-6,
2,
-39,
74,
-60,
3,
26,
17,
-12,
-2,
-21,
-8,
1,
-97,
-20,
1,
-6,
21,
22,
7,
-10,
22,
3,
4,
11,
3,
-9,
-6,
-24,
35,
32,
-18,
22,
-15,
24,
26,
-11,
-32,
-2,
-32,
30,
22,
-2,
-20,
-51,
35,
0,
-19,
-7,
22,
-32,
1,
-39,
32,
46,
23,
16,
10,
19,
-43,
32,
1,
-38,
-15,
19,
13,
-17,
10,
3,
-24,
7,
11,
-2,
36,
-14,
9,
24,
2,
-11,
11,
-22,
-10,
-23,
30,
15,
44,
13,
-51,
8,
22,
-17,
-6,
30,
5,
-25,
27,
34,
-30,
-12,
-26,
-25,
0,
14,
3,
9,
22,
10,
-1,
17,
3,
25,
-4,
31,
31,
-3,
-35,
-4,
-36,
-15,
89,
22,
26,
5,
11,
32,
12,
15,
6,
-43,
-6,
11,
-3,
-57,
9,
-1,
19,
-39,
16,
-31,
-26,
-7,
-6,
-42,
-2,
31,
-25,
-5,
-13,
-25,
-1,
-29,
-17,
-11,
2,
-30,
-22,
-4,
20,
5,
-11,
-9,
-6,
-39,
-11,
3,
17,
30,
12,
23,
11,
12,
-60,
-16,
9,
4,
0,
-21,
16,
-36,
-2,
-22,
-16,
25,
33,
21,
3,
20,
3,
10,
2,
18,
15,
-19,
40,
-16,
0,
24,
-14,
-6,
-7,
14,
-43,
7,
-6,
24,
24,
23,
-17,
-43,
-9,
27,
-7,
41,
-9,
0,
-54,
29,
18,
-10,
-3,
22,
-27,
-11,
35,
-54,
-24,
-51,
-51,
-34,
21,
-14,
21,
24,
-22,
-17,
22,
2,
1,
-16,
30,
1,
36,
16,
-24,
-6,
-9,
8,
56,
-45,
33,
22,
14,
0,
-28,
5,
-14,
-13,
33,
-50,
-34,
8,
18,
-10,
24,
15,
0,
4,
-7,
-18,
-1,
25,
29,
16,
-3,
-85,
5,
52,
14,
18,
21,
-9,
-33,
7,
-17,
27,
18,
24,
6,
-10,
16,
3,
12,
6,
-21,
-2,
-50,
-6,
24,
5,
-8,
82,
-44,
45,
38,
77,
-9,
-56,
18,
-4,
-12,
-15,
-9,
-24,
6,
2,
-2,
-22,
-11,
8,
-23,
-18,
-5,
2,
-9,
2,
-39,
-34,
-10,
-1,
-7,
-11,
33,
45,
34,
-13,
3,
45,
21,
14,
1,
13,
-1,
1,
3,
-13,
-35,
-7,
-19,
-18,
-10,
-24,
15,
4,
2,
-3,
19,
-11,
0,
-18,
-41,
-9,
-28,
13,
27,
-17,
7,
-9,
-10,
-2,
7,
-31,
4,
13,
-2,
13,
-73,
30,
17,
28,
-25,
2,
12,
-19,
16,
-21,
32,
29,
-33,
24,
-4,
-22,
-28,
16,
-21,
22,
-7,
20,
20,
0,
-11,
-19,
8,
-9,
9,
9,
9,
47,
26,
28,
-16,
59,
13,
-19,
-11,
-1,
26,
-6,
-13,
17,
-24,
15,
26,
-9,
-1,
-13,
29,
-3,
27,
-55,
11,
21,
-27,
-9,
-8,
33,
0,
0,
-4,
-3,
21,
5,
14,
16,
-17,
-45,
-16,
-23,
25,
-31,
-16,
-85,
38,
7,
57,
24,
-18,
36,
-15,
-17,
-3,
-32,
21,
-15,
14,
5,
-26,
-1,
17,
-7,
-2,
7,
24,
21,
-12,
-1,
4,
0,
-2,
-5,
-1,
47,
33,
52,
-2,
11,
-24,
-9,
13,
-29,
38,
-10,
-23,
-8,
-2,
-22,
-23,
-45,
20,
4,
74,
22,
58,
14,
-35,
14,
17,
7,
41,
6,
-2,
12,
7,
33,
10,
-24,
39,
2,
21,
-22,
-4,
5,
1,
-12,
21,
-24,
32,
36,
0,
-5,
-2,
12,
-13,
7,
-2,
-15,
0,
-11,
5,
-26,
-14,
43,
8,
18,
14,
54,
-11,
7,
13,
16,
-28,
-4,
14,
25,
-18,
-33,
-23,
9,
5,
-27,
3,
-9,
-14,
16,
-17,
20,
-1,
16,
-4,
0,
13,
-2,
1,
-10,
-15,
29,
-18,
7,
23,
-6,
-29,
-34,
-8,
19,
19,
-14,
17,
31,
16,
5,
4,
28,
17,
-15,
-13,
-7,
4,
-21,
7,
14,
-25,
-10,
48,
12,
22,
-3,
8,
40,
10,
5,
0,
-41,
-1,
28,
-9,
5,
-3,
-14,
18,
-7,
9,
-19,
16,
-7,
-10,
-5,
-22,
1,
-57,
19,
2,
23,
32,
-32,
10,
-16,
-6,
-4,
-5,
4,
-12,
26,
0,
-13,
7,
22,
-31,
24,
9,
-49,
18,
36,
26,
-4,
-27,
-29,
10,
43,
-13,
12,
9,
31,
14,
-4,
20,
-1,
-20,
-27,
16,
31,
15,
-10,
11,
38,
-3,
-19,
16,
8,
11,
36,
-18,
14,
10,
-29,
-2,
-9,
-5,
17,
32,
43,
-5,
-45,
18,
-27,
-19,
7,
-1,
-13,
-15,
5,
5,
1,
17,
14,
-1,
-10,
11,
4,
-3,
0,
30,
-10,
-15,
-3,
-25,
-10,
-11,
12,
5,
22,
9,
-18,
21,
-5,
6,
-21,
29,
-18,
-24,
32,
39,
-23,
16,
-1,
6,
6,
22,
-31,
-40,
-60,
3,
-45,
23,
-17,
-16,
43,
13,
12,
2,
19,
-12,
47,
47,
-15,
-5,
-16,
-32,
-23,
-19,
-7,
8,
3,
-8,
-14,
-26,
31,
3,
-41,
11,
11,
-51,
30,
-29,
-17,
-28,
-26,
-21,
27,
12,
46,
-54,
37,
65,
-32,
-11,
18,
7,
9,
16,
15,
19,
-30,
-29,
-26,
-43,
-5,
13,
99,
24,
-25,
45,
-39,
23,
14,
-40,
6,
15,
14,
-21,
7,
-27,
18,
39,
0,
-52,
9,
-46,
-12,
2,
-6,
-3,
34,
-48,
2,
-11,
-18,
-13,
-4,
59,
42,
-2,
-5,
26,
-19,
12,
-49,
4,
14,
29,
48,
-41,
0,
-38,
-49,
-21,
18,
29,
-10,
16,
38,
2,
-7,
20,
-17,
4,
-10,
31,
10,
36,
23,
-26,
17,
4,
-18,
-16,
5,
43,
25,
-25,
34,
-11,
-10,
-4,
15,
30,
12,
5,
-28,
14,
-29,
-41,
32,
-44,
-42,
31,
37,
7,
-17,
-6,
35,
16,
35,
-22,
-1,
8,
-6,
-6,
-57,
29,
3,
24,
22,
18,
12,
-16,
39,
4,
11,
-54,
27,
37,
10,
28,
33,
5,
1,
15,
27,
16,
-26,
-38,
-11,
-52,
-16,
-10,
60,
6,
-37,
62,
-57,
35,
-9,
6,
-13,
-34,
17,
-21,
-3,
16,
34,
-2,
46,
-24,
13,
18,
-10,
3,
-23,
12,
30,
-8,
16,
-30,
10,
30,
19,
-10,
63,
-18,
22,
7,
-17,
42,
-49,
-19,
18,
5,
21,
-13,
1,
-50,
-35,
2,
7,
9,
20,
-1,
5,
-8,
25,
29,
12,
12,
-13,
-14,
-6,
-13,
-14,
-27,
32,
-1,
-10,
14,
4,
-24,
17,
-24,
10,
-4,
-24,
-37,
-15,
25,
8,
25,
14,
-6,
21,
-7,
50,
-1,
-20,
-20,
21,
4,
10,
26,
24,
-18,
26,
2,
13,
28,
11,
10,
-12,
27,
-3,
-66,
38,
-11,
14,
5,
-10,
5,
12,
-52,
4,
-22,
23,
-6,
31,
-13,
9,
0,
33,
-15,
17,
2,
15,
-28,
-11,
22,
-5,
38,
-9,
-18,
18,
1,
-24,
-6,
33,
-16,
-2,
12,
13,
9,
31,
-3,
-26,
6,
1,
-5,
18,
19,
-1,
-16,
-24,
2,
-29,
1,
-11,
22,
18,
-4,
-19,
-10,
-28,
-3,
-29,
1,
-20,
20,
14,
10,
-61,
7,
28,
-60,
-34,
0,
-30,
0,
7,
-20,
25,
-33,
26,
4,
32,
-3,
-2,
23,
21,
-16,
-22,
-12,
16,
-15,
24,
-10,
17,
-10,
-60,
-39,
-24,
-1,
10,
10,
13,
19,
-14,
-8,
-4,
31,
-51,
6,
-44,
2,
-13,
-9,
-25,
46,
16,
-11,
2,
6,
28,
16,
-1,
-16,
10,
-10,
41,
11,
7,
-22,
-14,
30,
9,
0,
-24,
-17,
-12,
33,
5,
24,
-6,
-15,
38,
-22,
-53,
4,
-30,
14,
5,
-52,
-32,
27,
0,
5,
13,
-55,
9,
2,
-27,
9,
-9,
38,
23,
-13,
2,
-27,
29,
31,
10,
-22,
-17,
19,
28,
-2,
-31,
26,
-2,
-9,
18,
11,
-34,
-1,
-57,
-5,
-22,
26,
13,
1,
28,
-15,
35,
27,
29,
22,
18,
16,
-4,
19,
-15,
92,
19,
17,
16,
-34,
-21,
-7,
-52,
36,
1,
-25,
1,
30,
-2,
-44,
-64,
11,
40,
5,
5,
-47,
-25,
26,
-54,
41,
-38,
63,
35,
18,
31,
1,
0,
-7,
-18,
8,
-12,
19,
51,
16,
5,
-7,
1,
-9,
-61,
-21,
16,
14,
11,
5,
-39,
-29,
-55,
20,
-16,
29,
-33,
16,
49,
-22,
-26,
-20,
31,
3,
12,
16,
-24,
-26,
26,
19,
-8,
-6,
21,
15,
-3,
-14,
-26,
-16,
-8,
-22,
34,
-17,
-20,
-8,
-35,
-31,
-1,
-8,
-21,
31,
-3,
-2,
1,
4,
42,
14,
-10,
21,
-3,
-6,
53,
-2,
31,
40,
2,
4,
-52,
5,
-3,
30,
-3,
8,
-2,
23,
7,
34,
46,
1,
40,
7,
-30,
20,
30,
18,
-16,
-13,
10,
13,
-19,
-2,
-1,
-1,
44,
22,
-30,
-7,
2,
20,
27,
-35,
-3,
8,
12,
-11,
-17,
0,
28,
-25,
13,
-33,
-54,
1,
-6,
-15,
-47,
7,
-13,
12,
-8,
-24,
8,
7,
-7,
17,
-5,
13,
-27,
32,
14,
-13,
-7,
30,
-28,
-21,
-14,
2,
-29,
16,
16,
15,
34,
-5,
-19,
-34,
16,
-14,
32,
-12,
15,
14,
30,
10,
-37,
12,
37,
35,
-1,
32,
-30,
-45,
4,
-10,
-4,
12,
-26,
-14,
20,
-5,
-23,
4,
-25,
19,
12,
-36,
-10,
21,
29,
-28,
-45,
-21,
-8,
7,
35,
55,
12,
4,
-3,
0,
-23,
-24,
-25,
-45,
21,
-24,
-2,
8,
12,
-53,
12,
16,
16,
-15,
-16,
18,
32,
5,
13,
16,
4,
23,
22,
1,
29,
59,
32,
-21,
-23,
-26,
3,
-3,
-10,
22,
-12,
15,
-30,
44,
-8,
-9,
44,
-5,
1,
-6,
28,
25,
10,
13,
-12,
-25,
-9,
27,
-78,
-18,
-24,
-13,
19,
2,
-5,
21,
33,
8,
23,
20,
9,
13,
25,
4,
9,
0,
30,
21,
14,
-4,
-15,
-41,
-4,
27,
-5,
24,
-16,
-13,
33,
10,
34,
-16,
-16,
14,
-23,
-10,
15,
21,
-15,
-16,
3,
23,
23,
28,
20,
-18,
-16,
7,
15,
-22,
-18,
-14,
35,
46,
3,
-9,
-13,
-3,
-45,
-45,
30,
-33,
20,
13,
15,
-14,
16,
-2,
-21,
31,
-15,
-9,
-26,
45,
-57,
19,
-8,
-22,
-7,
5,
10,
2,
-3,
28,
27,
15,
0,
-20,
-2,
22,
-25,
20,
4,
18,
17,
-32,
32,
25,
-9,
-13,
-9,
15,
-7,
43,
11,
16,
-12,
27,
-5,
10,
-26,
5,
-38,
-4,
-36,
-12,
-20,
43,
5,
31,
24,
15,
7,
28,
31,
-6,
47,
30,
-4,
37,
20,
-4,
16,
35,
25,
-10,
-18,
-10,
-6,
13,
-2,
0,
-16,
4,
56,
24,
-1,
-15,
-18,
-12,
-35,
29,
-6,
2,
-7,
-11,
-3,
2,
-42,
34,
-26,
-9,
-19,
7,
21,
21,
12,
13,
-15,
15,
17,
-12,
-9,
8,
27,
12,
21,
-1,
2,
-4,
-18,
-18,
9,
-21,
-4,
7,
-34,
26,
17,
16,
4,
-18,
-27,
11,
-5,
-5,
3,
-14,
1,
11,
9,
-61,
47,
16,
13,
-6,
20,
11,
-1,
10,
-7,
-7,
-31,
18,
22,
21,
23,
-49,
-21,
-5,
-17,
14,
15,
6,
-46,
2,
17,
-26,
-15,
16,
-14,
-57,
-10,
-13,
27,
25,
30,
20,
22,
-31,
11,
27,
1,
-8,
17,
-27,
31,
-29,
-13,
-9,
-16,
12,
11,
-13,
-26,
-38,
21,
-51,
-39,
20,
20,
6,
7,
5,
-12,
16,
21,
4,
-41,
30,
-4,
56,
-20,
-4,
14,
5,
27,
10,
-5,
-21,
24,
17,
34,
-7,
-25,
-26,
-23,
-4,
-3,
-29,
-38,
-3,
-21,
12,
-21,
5,
-21,
-9,
-15,
4,
-22,
-29,
-7,
-13,
-12,
21,
11,
4,
2,
23,
6,
5,
5,
18,
-19,
-21,
6,
2,
-7,
-17,
21,
-4,
-17,
-6,
-18,
14,
10,
-10,
-38,
-3,
4,
8,
25,
-17,
6,
-31,
-30,
-23,
-16,
20,
-5,
-16,
-5,
-13,
7,
0,
-27,
-11,
9,
-39,
-36,
12,
8,
-27,
-22,
-14,
0,
-19,
11,
23,
-28,
-11,
-33,
-2,
-8,
-8,
-6,
-27,
-20,
-22,
-19,
-11,
8,
-3,
-25,
26,
-16,
-8,
-4,
-2,
8,
-19,
3,
-1,
1,
-21,
-1,
12,
-26,
-21,
2,
-17,
19,
-12,
-2,
-10,
4,
12,
-12,
16,
-14,
-29,
-45,
3,
-16,
-4,
0,
-16,
-17,
2,
24,
-18,
1,
-11,
22,
26,
3,
-5,
-57,
4,
27,
17,
-7,
14,
-28,
11,
4,
10,
-24,
8,
10,
11,
-88,
9,
27,
1,
17,
-35,
-13,
2,
31,
-1,
-7,
-12,
-29,
6,
-60,
14,
-11,
14,
14,
-7,
21,
0,
-16,
-2,
26,
-29,
22,
0,
7,
-8,
-24,
14,
-16,
-19,
11,
6,
19,
-28,
-47,
7,
1,
-19,
-11,
-15,
23,
12,
9,
-27,
56,
-15,
-1,
-26,
-13,
22,
32,
30,
27,
7,
17,
-37,
-47,
-5,
-43,
18,
7,
10,
10,
17,
0,
-11,
-57,
-21,
20,
2,
15,
-19,
-3,
27,
-37,
25,
45,
10,
0,
-24,
6,
-3,
-42,
7,
-13,
-14,
24,
-9,
46,
-18,
37,
-50,
-15,
-17,
-28,
-3,
38,
-43,
27,
-5,
-16,
-5,
-47,
7,
18,
-20,
-16,
8,
-15,
-7,
-4,
29,
13,
-18,
5,
7,
-14,
7,
11,
-2,
9,
-10,
7,
7,
-39,
-9,
27,
-21,
-15,
0,
-32,
9,
29,
-6,
9,
-28,
-6,
-6,
-11,
-15,
28,
-14,
-19,
-4,
-4,
16,
28,
-4,
30,
-29,
-6,
10,
10,
-7,
-35,
-11,
-4,
8,
15,
-23,
12,
-11,
-48,
4,
-34,
3,
39,
-18,
14,
-22,
23,
-12,
44,
-44,
25,
15,
21,
-21,
13,
19,
22,
13,
23,
-25,
-19,
-13,
-38,
47,
9,
17,
1,
28,
13,
7,
-27,
9,
21,
10,
-4,
-30,
-4,
22,
-3,
2,
24,
16,
6,
6,
19,
0,
8,
-21,
20,
-16,
-7,
-15,
60,
22,
40,
-27,
-8,
4,
-16,
-40,
12,
26,
27,
28,
3,
-32,
-29,
10,
-18,
5,
10,
13,
17,
1,
-19,
17,
-15,
8,
-12,
-9,
28,
-65,
4,
23,
0,
12,
5,
24,
-8,
17,
-3,
-12,
-3,
-42,
30,
-3,
-47,
-11,
-16,
16,
-2,
-12,
-14,
26,
-1,
27,
20,
-9,
23,
-1,
14,
-13,
12,
6,
-41,
7,
31,
20,
-25,
-1,
-11,
-6,
3,
4,
-7,
12,
-6,
8,
16,
31,
7,
24,
18,
-1,
-23,
17,
-7,
25,
-15,
28,
11,
-1,
-19,
-33,
-22,
-28,
3,
5,
6,
0,
-29,
26,
19,
-8,
-11,
9,
-1,
-6,
-1,
44,
-3,
-7,
37,
-22,
-1,
4,
21,
-23,
-59,
-19,
-27,
-6,
5,
12,
-10,
16,
-12,
-1,
2,
4,
4,
2,
-14,
7,
-1,
29,
-14,
-28,
-20,
52,
-25,
27,
22,
-4,
-5,
10,
-26,
-31,
11,
-20,
2,
-16,
13,
-5,
21,
-21,
-31,
-20,
32,
28,
35,
-12,
26,
17,
6,
-14,
-18,
13,
28,
-6,
34,
31,
13,
38,
72,
-11,
-7,
-42,
-24,
2,
4,
-31,
27,
21,
-20,
-23,
-61,
-9,
-7,
-17,
-4,
-11,
16,
-3,
-23,
-49,
-16,
-41,
37,
6,
23,
24,
-3,
11,
-23,
-24,
4,
-21,
-11,
-20,
-51,
28,
-4,
-3,
-73,
-30,
33,
30,
29,
18,
-17,
25,
15,
-13,
-48,
-13,
-25,
-18,
13,
-23,
-8,
26,
22,
-7,
17,
6,
10,
-7,
-30,
10,
13,
-3,
14,
-17,
44,
2,
53,
13,
46,
-32,
3,
19,
-22,
-9,
-8,
-26,
4,
-20,
30,
-9,
-5,
18,
6,
-6,
16,
7,
12,
-49,
6,
10,
1,
-11,
-3,
12,
-12,
23,
24,
-14,
-6,
-7,
-28,
15,
15,
18,
1,
4,
-39,
-23,
5,
-6,
-6,
25,
11,
-11,
-4,
15,
8,
1,
15,
-69,
28,
14,
-7,
-8,
-8,
-9,
2,
-50,
-28,
10,
-11,
41,
25,
-10,
4,
-39,
26,
29,
-8,
-42,
21,
0,
2,
15,
-20,
15,
-41,
19,
5,
16,
-34,
-28,
-1,
32,
22,
-23,
-14,
18,
-3,
-18,
-6,
10,
-1,
-10,
24,
-22,
-18,
18,
-22,
10,
-7,
-9,
-1,
-7,
-1,
17,
-4,
-15,
5,
-18,
4,
3,
8,
-14,
-19,
15,
-26,
-25,
8,
8,
-22,
22,
-2,
-13,
-13,
-1,
6,
10,
3,
-28,
-19,
-21,
0,
6,
-8,
9,
-31,
32,
16,
-6,
-17,
10,
1,
-6,
1,
33,
-17,
-2,
21,
-1,
3,
20,
-51,
-44,
8,
10,
32,
13,
35,
7,
10,
-60,
25,
-4,
14,
-24,
25,
45,
-28,
-40,
7,
-4,
-19,
5,
13,
10,
11,
-2,
10,
-29,
0,
-8,
46,
-5,
-33,
45,
-29,
-19,
32,
-16,
17,
19,
-24,
-15,
9,
-15,
2,
48,
-15,
-26,
39,
-55,
-34,
0,
48,
-10,
-4,
-1,
2,
-34,
-28,
8,
-7,
2,
27,
-6,
21,
-10,
6,
-25,
29,
5,
-7,
26,
46,
3,
-2,
22,
-5,
28,
-18,
2,
-49,
-16,
7,
37,
-22,
23,
-9,
8,
13,
14,
-9,
-12,
21,
28,
32,
11,
-17,
-7,
34,
46,
27,
5,
44,
-13,
14,
16,
-20,
26,
-2,
1,
23,
-1,
47,
-18,
18,
-51,
-1,
47,
-15,
4,
-16,
1,
26,
21,
-31,
-5,
3,
16,
30,
8,
9,
-16,
-5,
-10,
30,
20,
0,
-4,
-23,
-10,
-46,
61,
-24,
-5,
-3,
37,
25,
-9,
-34,
0,
15,
-6,
5,
-15,
-1,
5,
5,
17,
47,
14,
12,
7,
25,
-3,
29,
3,
14,
16,
-27,
-47,
-33,
13,
-38,
23,
11,
-6,
23,
30,
13,
1,
-73,
13,
47,
-14,
-8,
-48,
4,
20,
-14,
2,
-19,
13,
35,
-4,
34,
-5,
-10,
-33,
0,
25,
20,
22,
3,
-5,
18,
25,
49,
2,
-16,
-14,
11,
33,
-2,
-31,
-48,
17,
-10,
-5,
-9,
26,
31,
25,
-28,
-34,
-8,
-10,
43,
29,
15,
14,
-39,
13,
-15,
-34,
-27,
-3,
6,
12,
-7,
3,
12,
-3,
0,
28,
-25,
0,
23,
-24,
-34,
-37,
-17,
-26,
14,
-42,
-21,
-15,
-13,
-14,
-24,
-10,
-30,
38,
-18,
-13,
-7,
4,
-24,
-20,
-18,
-12,
21,
9,
-8,
21,
1,
19,
2,
3,
-19,
7,
12,
2,
-36,
-7,
-17,
-3,
16,
-10,
10,
-23,
-15,
0,
-9,
-9,
-17,
-24,
-5,
7,
7,
-38,
-7,
-8,
-17,
-48,
0,
-7,
-21,
-3,
-32,
0,
-32,
-33,
-21,
-17,
-17,
-9,
-7,
-8,
14,
-17,
-10,
7,
13,
10,
-25,
-16,
-11,
-31,
-24,
-7,
19,
11,
-23,
7,
-21,
13,
0,
5,
-23,
-8,
4,
-17,
-23,
-17,
9,
-12,
-3,
-20,
-7,
16,
-18,
-15,
-37,
4,
-21,
-8,
8,
9,
-37,
12,
-25,
-9,
11,
1,
-6,
-38,
-8,
-5,
5,
-10,
-2,
8,
-9,
-19,
-11,
-29,
7,
19,
13,
2,
12,
13,
11,
5,
24,
23,
-5,
4,
40,
25,
-62,
9,
-15,
-5,
5,
19,
-55,
-65,
12,
40,
-9,
13,
9,
18,
-45,
12,
-19,
-20,
13,
-72,
5,
-16,
-9,
-22,
-43,
-56,
5,
-10,
-72,
26,
33,
7,
28,
-30,
7,
37,
32,
23,
0,
-47,
-4,
-16,
40,
4,
-27,
-4,
-37,
0,
-14,
-3,
-16,
11,
-18,
5,
-17,
8,
62,
-8,
6,
-8,
46,
-8,
23,
17,
-1,
-21,
10,
1,
24,
49,
16,
-3,
30,
-13,
4,
7,
-47,
20,
19,
-12,
3,
30,
15,
-11,
-11,
-1,
37,
-6,
20,
-16,
-48,
25,
-24,
13,
-11,
10,
19,
-4,
17,
-18,
-36,
-6,
13,
3,
15,
11,
8,
29,
52,
-30,
-23,
47,
-30,
-29,
-3,
18,
-3,
28,
-5,
-12,
8,
-6,
-3,
36,
27,
1,
-4,
-32,
13,
16,
-12,
38,
25,
19,
2,
10,
13,
-52,
10,
34,
19,
25,
26,
7,
-21,
14,
-9,
19,
5,
-9,
26,
0,
-68,
15,
23,
-35,
11,
30,
2,
-8,
30,
25,
14,
3,
10,
-6,
-5,
-36,
-14,
13,
-33,
-29,
26,
17,
28,
-9,
-4,
-18,
-30,
14,
18,
21,
-1,
-32,
-60,
15,
-24,
10,
14,
-8,
-24,
5,
-11,
-10,
-24,
23,
17,
-29,
-22,
-6,
-3,
28,
8,
-9,
17,
-10,
28,
2,
-25,
-15,
3,
4,
-5,
-1,
14,
2,
-11,
34,
23,
9,
21,
16,
23,
-14,
0,
1,
10,
27,
11,
14,
20,
5,
-22,
7,
-72,
20,
-22,
37,
-6,
2,
9,
-4,
14,
-32,
-4,
-20,
29,
30,
33,
28,
-14,
12,
-15,
30,
20,
-12,
-42,
16,
11,
-18,
2,
1,
-9,
-34,
2,
75,
-7,
-18,
8,
-9,
-66,
-3,
-8,
-13,
-6,
-59,
1,
12,
18,
18,
-31,
-53,
-10,
-34,
-59,
-36,
15,
-15,
-7,
19,
-15,
-23,
5,
32,
27,
-15,
-3,
-15,
46,
5,
-6,
11,
13,
-14,
4,
5,
17,
-12,
-44,
-9,
-4,
-8,
33,
-12,
20,
8,
31,
-29,
17,
40,
5,
15,
4,
-19,
28,
22,
21,
0,
22,
-25,
13,
-20,
-64,
27,
-7,
-9,
26,
0,
10,
-31,
-36,
6,
-22,
12,
17,
18,
-32,
13,
-79,
42,
41,
-16,
40,
3,
11,
-5,
-7,
9,
-14,
-12,
24,
0,
29,
14,
49,
-22,
6,
30,
-51,
-50,
20,
-9,
9,
-3,
8,
33,
-15,
-5,
-4,
6,
-2,
-40,
-40,
35,
32,
-1,
6,
24,
-6,
-12,
-21,
32,
-11,
2,
-29,
-2,
18,
12,
-8,
0,
-30,
3,
-37,
-6,
11,
4,
-43,
12,
48,
15,
24,
-24,
49,
5,
-17,
15,
-4,
30,
16,
-35,
8,
-6,
-54,
1,
68,
-3,
-16,
48,
7,
1,
-32,
15,
6,
10,
-13,
-10,
18,
-7,
11,
10,
7,
2,
-9,
-11,
24,
25,
19,
-4,
-7,
-4,
6,
17,
-26,
-8,
15,
20,
41,
9,
13,
19,
-40,
38,
9,
-3,
-27,
9,
-11,
-7,
1,
37,
4,
-8,
-16,
1,
4,
7,
-15,
-13,
-24,
21,
-38,
17,
-6,
-16,
23,
-40,
-14,
26,
1,
9,
12,
16,
-20,
15,
-11,
-36,
24,
-8,
-14,
10,
-20,
12,
2,
-23,
-1,
33,
-30,
-11,
8,
-18,
-17,
-18,
42,
15,
3,
17,
37,
20,
28,
-17,
25,
20,
16,
3,
-6,
15,
10,
6,
-5,
-16,
20,
-31,
27,
-41,
5,
-11,
53,
20,
-11,
13,
-24,
-17,
27,
-4,
21,
-11,
11,
-22,
-1,
-24,
-17,
11,
20,
11,
34,
-1,
22,
12,
4,
0,
29,
6,
1,
-3,
-2,
-6,
-16,
21,
28,
-10,
-11,
-7,
-11,
10,
-72,
1,
19,
-17,
41,
-13,
-16,
-45,
-42,
14,
-9,
30,
-2,
-1,
62,
12,
14,
-3,
-34,
-2,
-11,
22,
13,
36,
7,
-6,
-4,
-5,
-19,
3,
27,
31,
17,
7,
-26,
-13,
11,
-7,
-2,
8,
-13,
-14,
3,
35,
-17,
20,
26,
-9,
-33,
-15,
26,
46,
-16,
28,
-12,
3,
14,
-25,
17,
30,
14,
-34,
33,
-1,
-39,
25,
14,
8,
32,
-28,
-16,
3,
8,
26,
-5,
-72,
30,
3,
-2,
16,
-6,
19,
1,
2,
26,
12,
-15,
-18,
10,
-10,
41,
46,
-14,
22,
45,
-36,
19,
11,
-6,
8,
-40,
-49,
-31,
8,
2,
8,
-20,
-14,
-29,
-25,
-2,
-24,
23,
9,
-17,
11,
34,
7,
17,
-17,
-3,
-35,
11,
14,
-52,
26,
17,
-23,
-60,
-35,
16,
23,
-9,
-2,
0,
22,
-19,
24,
-15,
-17,
-19,
22,
27,
-11,
11,
36,
6,
48,
-10,
-15,
25,
-3,
3,
29,
-3,
23,
12,
2,
36,
9,
22,
16,
-3,
-6,
18,
30,
5,
5,
5,
-9,
48,
13,
40,
-21,
-10,
48,
8,
4,
21,
24,
-9,
22,
54,
4,
-4,
-33,
14,
43,
-21,
13,
11,
12,
-27,
53,
-44,
12,
19,
6,
-16,
11,
11,
-13,
11,
-31,
-14,
-29,
-3,
6,
-4,
1,
-27,
20,
26,
-5,
25,
-43,
-16,
-6,
11,
41,
-5,
-5,
-13,
2,
20,
-1,
6,
-13,
1,
-57,
5,
-5,
-19,
-37,
2,
40,
-4,
35,
-39,
-4,
-19,
6,
-6,
68,
43,
21,
35,
18,
21,
-45,
86,
-13,
-2,
20,
1,
-1,
-7,
-20,
35,
-16,
-21,
15,
17,
45,
-34,
10,
17,
2,
-23,
-5,
-18,
-15,
15,
20,
-1,
50,
1,
8,
22,
19,
-26,
2,
13,
5,
-50,
6,
-15,
-20,
4,
-15,
-39,
-10,
19,
5,
-17,
3,
0,
1,
52,
-1,
28,
58,
29,
56,
-18,
-6,
-40,
-37,
22,
31,
23,
0,
0,
16,
5,
23,
6,
-19,
-17,
18,
25,
-7,
20,
24,
17,
-2,
-3,
-5,
-14,
24,
16,
67,
8,
11,
-2,
14,
-56,
-15,
-8,
6,
2,
4,
-20,
-2,
50,
-7,
-14,
-63,
26,
-34,
7,
-2,
0,
-19,
-9,
40,
21,
27,
0,
-7,
0,
14,
31,
3,
28,
38,
11,
17,
-23,
-1,
21,
-5,
24,
-15,
-11,
19,
-6,
13,
36,
13,
14,
18,
37,
-55,
42,
-15,
20,
-5,
-17,
23,
14,
2,
34,
15,
11,
-11,
6,
9,
-15,
9,
-14,
-29,
37,
6,
3,
-19,
-20,
-61,
31,
-16,
-20,
-2,
-10,
14,
-78,
10,
48,
12,
10,
3,
-17,
24,
2,
10,
8,
35,
20,
-15,
47,
3,
1,
-12,
11,
43,
-6,
-14,
1,
-127,
43,
14,
-45,
29,
-39,
36,
1,
28,
40,
-4,
-28,
11,
-13,
4,
30,
20,
-58,
15,
19,
-13,
13,
-42,
6,
7,
-7,
-3,
9,
5,
-18,
-6,
2,
3,
7,
-11,
-11,
20,
-18,
-10,
-11,
-17,
9,
1,
38,
41,
15,
-5,
6,
-49,
19,
28,
-31,
28,
-26,
44,
-6,
29,
3,
15,
0,
-16,
-14,
53,
26,
-27,
4,
-2,
22,
23,
-18,
-2,
-14,
-8,
31,
-35,
-17,
-18,
20,
-3,
-45,
-1,
22,
59,
17,
22,
-9,
13,
-48,
-20,
16,
13,
-19,
-3,
-2,
19,
11,
0,
-29,
17,
21,
17,
12,
-11,
-53,
24,
62,
18,
-29,
61,
-26,
-16,
30,
30,
-7,
19,
-17,
3,
8,
22,
30,
58,
-10,
10,
-8,
14,
-44,
-25,
24,
4,
-15,
12,
0,
-9,
-1,
34,
36,
16,
31,
-54,
-38,
-17,
-3,
-9,
19,
2,
-13,
-11,
28,
26,
-7,
-21,
11,
12,
25,
-11,
9,
10,
-3,
14,
-27,
5,
5,
23,
38,
-17,
34,
46,
30,
0,
19,
-5,
30,
2,
9,
29,
-18,
-68,
5,
22,
-31,
47,
28,
-3,
17,
-11,
36,
6,
12,
21,
17,
36,
2,
-14,
12,
18,
7,
10,
37,
-1,
-21,
-21,
18,
-23,
-6,
-37,
10,
-17,
20,
-10,
8,
39,
22,
7,
36,
30,
-15,
1,
1,
-5,
-3,
-13,
-28,
22,
8,
45,
-23,
5,
21,
-25,
15,
29,
-54,
-5,
46,
24,
13,
-9,
6,
6,
-2,
-22,
7,
-40,
8,
16,
21,
28,
0,
1,
-6,
33,
-42,
-23,
-4,
-58,
-26,
-13,
8,
-18,
-18,
-9,
14,
-14,
11,
24,
-10,
20,
14,
-11,
-10,
23,
14,
20,
33,
4,
-33,
-32,
15,
-4,
8,
-30,
-14,
-9,
31,
7,
-33,
12,
18,
11,
-24,
11,
4,
0,
-61,
-16,
14,
-19,
0,
11,
-19,
-3,
11,
7,
2,
55,
20,
10,
19,
-37,
-50,
-8,
-14,
-14,
-20,
-8,
40,
20,
-25,
-19,
-16,
31,
28,
0,
-12,
-2,
16,
-12,
-4,
36,
-13,
-21,
52,
5,
11,
-3,
16,
9,
28,
-16,
9,
-26,
-44,
14,
19,
-10,
-21,
-16,
-9,
28,
-2,
-17,
-4,
26,
31,
-31,
16,
2,
0,
5,
9,
6,
-15,
4,
26,
-19,
-4,
-3,
-20,
18,
26,
17,
-11,
-7,
6,
-22,
4,
-5,
-29,
-23,
36,
62,
-9,
4,
17,
-25,
-24,
2,
-4,
31,
26,
-41,
12,
3,
38,
3,
9,
-64,
-7,
20,
-2,
-20,
-13,
-13,
14,
-3,
-12,
13,
31,
25,
13,
13,
-8,
-16,
33,
-4,
8,
-14,
22,
38,
26,
-14,
-6,
-29,
-8,
-7,
-9,
14,
9,
-15,
-1,
57,
27,
-13,
29,
-20,
-48,
37,
-14,
-37,
14,
-26,
20,
32,
19,
-14,
47,
0,
-15,
-25,
-38,
29,
13,
18,
-15,
-13,
29,
-18,
28,
-69,
15,
21,
-39,
14,
-15,
23,
-4,
25,
18,
29,
-16,
1,
-33,
1,
25,
-3,
8,
-30,
11,
-22,
-16,
-13,
-23,
-27,
30,
19,
-28,
2,
14,
-18,
20,
26,
-4,
2,
28,
-3,
-18,
-2,
-41,
24,
17,
5,
-28,
-1,
6,
-30,
17,
-60,
-12,
7,
8,
32,
-7,
-72,
-20,
-9,
-24,
12,
-12,
18,
23,
-3,
20,
-2,
16,
-42,
-4,
8,
16,
-10,
-2,
3,
-16,
13,
-16,
-30,
10,
23,
10,
7,
-25,
14,
-19,
-9,
29,
-19,
30,
-23,
15,
-6,
-30,
17,
20,
-6,
-36,
-1,
38,
17,
-9,
27,
-6,
-29,
-21,
4,
-33,
32,
18,
31,
30,
-1,
-31,
25,
-11,
11,
10,
41,
11,
-4,
31,
14,
19,
0,
44,
-21,
-8,
28,
21,
-18,
-41,
-4,
33,
-17,
12,
11,
22,
50,
-26,
31,
-9,
-22,
-30,
-4,
-9,
9,
6,
11,
-38,
7,
-20,
23,
-2,
-32,
21,
-27,
22,
10,
-51,
-3,
42,
44,
48,
-14,
1,
-8,
-23,
-10,
-32,
-12,
0,
-17,
20,
34,
-6,
-5,
25,
19,
-14,
45,
-18,
23,
10,
-46,
24,
12,
26,
20,
32,
-21,
0,
-18,
19,
6,
8,
20,
58,
22,
27,
-28,
28,
-12,
-11,
15,
-22,
18,
-27,
-31,
-15,
14,
11,
-18,
15,
-23,
-24,
18,
-32,
13,
9,
5,
31,
-32,
-10,
16,
21,
-51,
-18,
-15,
11,
-10,
15,
30,
-2,
-12,
5,
14,
-60,
9,
-10,
-4,
20,
6,
36,
14,
-19,
-7,
33,
-2,
7,
-31,
-26,
6,
-33,
-9,
25,
-12,
6,
6,
25,
15,
23,
30,
27,
21,
2,
-30,
29,
0,
-23,
14,
18,
-6,
1,
33,
-13,
16,
1,
-8,
-2,
11,
-14,
27,
2,
39,
-40,
3,
62,
19,
-11,
-31,
0,
8,
9,
-33,
-22,
18,
17,
23,
-4,
24,
-17,
8,
44,
-30,
-44,
-16,
46,
10,
13,
37,
7,
-2,
-16,
7,
-32,
0,
-23,
38,
-7,
-11,
-7,
-15,
-36,
35,
8,
4,
7,
-18,
3,
13,
-5,
-18,
5,
-6,
13,
15,
22,
19,
19,
11,
31,
9,
-21,
-44,
34,
-35,
0,
-2,
36,
39,
10,
30,
-44,
17,
48,
34,
-8,
-14,
-14,
-35,
11,
11,
-17,
-34,
27,
20,
15,
32,
-21,
14,
-18,
15,
27,
69,
6,
-7,
-15,
26,
-3,
-9,
88,
-4,
5,
-10,
2,
4,
-31,
-20,
29,
-24,
29,
30,
-15,
20,
3,
0,
43,
-24,
-22,
3,
37,
-7,
22,
-18,
-6,
54,
-15,
-33,
13,
24,
5,
-22,
29,
7,
-47,
3,
56,
-31,
-30,
28,
-24,
8,
13,
-3,
-20,
12,
20,
-17,
34,
14,
15,
22,
41,
10,
-31,
-28,
-25,
-6,
-3,
54,
30,
16,
14,
-35,
7,
-48,
3,
-8,
3,
14,
32,
16,
-30,
-4,
8,
25,
-12,
15,
-53,
10,
-18,
12,
-22,
8,
6,
-8,
33,
-21,
-51,
-7,
-7,
7,
9,
40,
-11,
-17,
-47,
-15,
25,
-39,
45,
-3,
-66,
-33,
-11,
28,
37,
74,
12,
23,
-4,
-12,
-2,
-9,
-27,
-33,
3,
13,
-21,
-10,
-41,
-69,
-10,
1,
27,
8,
3,
8,
-8,
-7,
33,
12,
5,
-14,
34,
18,
-13,
21,
-8,
18,
-10,
-85,
26,
12,
18,
14,
46,
-17,
-34,
34,
13,
1,
52,
-58,
-20,
-19,
9,
7,
0,
-3,
-23,
17,
3,
-6,
-88,
-31,
35,
-62,
7,
18,
-14,
5,
12,
-30,
5,
15,
-14,
1,
-20,
-29,
20,
-1,
41,
-16,
29,
-33,
-15,
-33,
-54,
-36,
5,
44,
9,
-22,
-9,
11,
5,
17,
10,
-50,
30,
2,
-1,
12,
10,
11,
41,
-34,
17,
-5,
42,
9,
9,
-4,
16,
3,
21,
14,
34,
55,
8,
-5,
28,
-12,
24,
-12,
-12,
-15,
45,
12,
-1,
9,
-8,
2,
-21,
4,
6,
5,
-23,
48,
-81,
-10,
-45,
-62,
20,
13,
70,
13,
-6,
8,
15,
2,
-9,
12,
20,
12,
-55,
-14,
-31,
12,
-23,
-8,
-48,
-2,
-10,
37,
7,
22,
11,
25,
12,
15,
-53,
-5,
15,
-11,
39,
-2,
-21,
7,
-23,
-28,
-20,
37,
2,
9,
21,
44,
6,
19,
54,
-1,
43,
4,
-9,
23,
11,
-53,
-4,
2,
14,
38,
7,
-33,
-21,
10,
5,
-38,
-49,
-48,
45,
-1,
17,
54,
15,
-2,
-20,
4,
1,
11,
-12,
9,
-29,
-39,
11,
-17,
-23,
13,
42,
0,
31,
-23,
3,
19,
-31,
31,
-29,
32,
-19,
-3,
-16,
-20,
14,
-10,
6,
-5,
-42,
-1,
-35,
2,
-37,
-9,
32,
-9,
32,
29,
32,
-30,
2,
20,
14,
-5,
7,
-12,
-17,
1,
-2,
-9,
46,
-9,
-1,
0,
20,
3,
-9,
-14,
-6,
-32,
-10,
20,
21,
-43,
-11,
-26,
42,
13,
6,
-11,
29,
34,
-6,
-31,
11,
-14,
32,
6,
-40,
-37,
-1,
18,
56,
-6,
24,
-18,
22,
36,
-32,
-24,
4,
33,
-10,
-63,
18,
51,
21,
12,
-22,
-2,
6,
26,
-9,
-22,
-30,
-13,
-33,
7,
-13,
3,
23,
-3,
3,
-1,
13,
-3,
-7,
31,
59,
6,
-12,
0,
44,
8,
-43,
16,
13,
18,
-22,
-7,
19,
-4,
-16,
-2,
-25,
-7,
10,
14,
11,
-17,
17,
-5,
8,
2,
13,
21,
-18,
0,
-7,
-11,
34,
-1,
20,
14,
-23,
-4,
-25,
-34,
22,
2,
-43,
17,
51,
-2,
18,
-7,
16,
-30,
-32,
-11,
4,
-11,
51,
-8,
-15,
17,
-6,
-49,
18,
15,
23,
54,
17,
13,
-49,
-17,
1,
-30,
-18,
26,
5,
-3,
5,
-18,
26,
-3,
31,
-10,
9,
46,
-6,
14,
14,
-9,
-17,
12,
23,
-45,
-16,
-1,
51,
27,
16,
20,
-13,
27,
37,
9,
39,
-14,
21,
-24,
-1,
8,
-35,
-24,
17,
7,
7,
-12,
-16,
-46,
-51,
-50,
-27,
-7,
25,
12,
18,
5,
4,
2,
12,
28,
3,
0,
26,
-1,
-27,
-54,
-9,
-6,
28,
43,
0,
10,
3,
-15,
12,
-15,
12,
5,
35,
-49,
-26,
-78,
8,
-15,
-1,
19,
16,
-16,
22,
24,
8,
-5,
14,
11,
-15,
29,
15,
-1,
5,
-19,
-22,
-8,
26,
40,
52,
8,
0,
33,
-10,
-34,
44,
20,
0,
-13,
4,
21,
17,
7,
-6,
-14,
-36,
40,
-22,
11,
-30,
-31,
42,
37,
20,
-18,
-9,
14,
7,
5,
26,
23,
-7,
28,
-49,
-16,
-53,
-3,
-8,
5,
-23,
-2,
5,
6,
-34,
-23,
17,
18,
21,
16,
-22,
-4,
-1,
9,
29,
9,
-19,
-9,
-8,
-21,
9,
17,
19,
17,
9,
20,
10,
16,
28,
2,
55,
17,
8,
9,
-12,
15,
-2,
-5,
4,
-6,
21,
-58,
8,
17,
-50,
-10,
-10,
2,
5,
18,
17,
-19,
-38,
-30,
1,
-27,
0,
-11,
22,
-10,
15,
-16,
-1,
1,
-47,
69,
-40,
2,
10,
-7,
35,
-23,
-24,
4,
9,
2,
8,
-29,
-9,
22,
-6,
-18,
0,
-19,
-13,
-15,
-12,
36,
-62,
6,
-8,
-7,
-8,
0,
5,
3,
-15,
-6,
2,
-10,
-17,
-28,
24,
13,
18,
-7,
-35,
19,
-19,
-3,
-34,
-4,
15,
11,
-7,
20,
-21,
-9,
-3,
15,
9,
-36,
8,
-21,
40,
-28,
31,
13,
29,
-1,
-2,
-1,
-12,
3,
-6,
19,
33,
28,
3,
-8,
-2,
3,
-32,
12,
24,
24,
-6,
-7,
-19,
-40,
13,
-6,
18,
-14,
15,
9,
6,
18,
13,
-13,
-36,
10,
-3,
1,
10,
-41,
15,
4,
17,
29,
-2,
-26,
41,
30,
28,
-10,
27,
-49,
-21,
-50,
41,
91,
-15,
12,
-21,
-22,
-25,
-39,
37,
39,
28,
4,
26,
-2,
-40,
-6,
11,
10,
13,
12,
-37,
-17,
28,
12,
-37,
17,
-15,
10,
-46,
5,
-26,
-19,
6,
-34,
-1,
44,
-35,
-20,
-44,
-10,
12,
-40,
6,
46,
-17,
-7,
38,
28,
4,
4,
17,
-22,
-9,
-20,
55,
-37,
4,
-9,
-25,
-5,
-23,
10,
19,
-23,
-25,
7,
-15,
32,
6,
26,
32,
-18,
27,
-7,
39,
-3,
57,
-4,
-30,
-37,
-22,
23,
14,
32,
28,
-1,
-1,
13,
24,
15,
-68,
-27,
-6,
-14,
4,
-13,
3,
-10,
-49,
31,
33,
0,
-15,
67,
23,
-12,
-69,
32,
45,
6,
23,
-12,
14,
-17,
-17,
21,
3,
0,
27,
-18,
7,
-17,
34,
-38,
8,
11,
-45,
-44,
15,
11,
-2,
16,
-38,
9,
15,
1,
12,
14,
40,
-48,
-75,
18,
63,
21,
10,
16,
23,
0,
-10,
55,
-23,
8,
10,
24,
-17,
2,
44,
6,
-3,
-8,
-52,
29,
24,
35,
-3,
20,
30,
-2,
-16,
-2,
10,
-23,
62,
21,
-42,
-15,
-30,
-4,
-23,
19,
-85,
10,
-29,
18,
6,
-1,
12,
-22,
36,
-7,
-41,
9,
6,
23,
13,
-36,
14,
5,
34,
12,
0,
-24,
-7,
15,
-3,
-44,
19,
-20,
50,
10,
-40,
69,
0,
-16,
6,
29,
27,
21,
24,
13,
3,
-16,
-16,
3,
-23,
15,
22,
39,
2,
61,
2,
14,
19,
-15,
39,
33,
-5,
62,
-14,
-16,
-16,
-18,
24,
-8,
20,
-3,
33,
-11,
14,
8,
-18,
17,
16,
-39,
52,
-21,
5,
41,
-1,
3,
20,
-22,
28,
-19,
-15,
-10,
1,
-29,
8,
-24,
-23,
-12,
-11,
-11,
-19,
-20,
-11,
6,
-11,
7,
-20,
-7,
-15,
-23,
-15,
-19,
-14,
-4,
-9,
18,
-4,
-8,
7,
6,
-30,
-15,
-2,
-18,
1,
18,
18,
-10,
-19,
-11,
-19,
-18,
-30,
-21,
-3,
23,
22,
-12,
-23,
-1,
-13,
11,
2,
0,
-21,
-24,
-1,
10,
-25,
-18,
-20,
10,
18,
6,
25,
14,
-8,
-21,
9,
0,
5,
-16,
4,
8,
3,
9,
1,
-2,
13,
-3,
-1,
11,
-19,
-33,
-10,
-17,
-4,
2,
20,
17,
-23,
-30,
-22,
-3,
-24,
-12,
-18,
-38,
2,
-20,
-31,
-13,
-2,
-2,
-21,
-16,
-1,
-22,
-2,
-3,
-19,
-20,
10,
11,
-6,
8,
-33,
-6,
-21,
-14,
6,
5,
4,
-20,
10,
5,
16,
38,
23,
-28,
34,
14,
-8,
23,
14,
19,
32,
-9,
-39,
-12,
30,
41,
-9,
-30,
-9,
2,
20,
-17,
29,
19,
-1,
-13,
-15,
30,
-4,
12,
-1,
-3,
-1,
-22,
1,
-11,
25,
-7,
-12,
27,
23,
-21,
-11,
-23,
4,
23,
-29,
5,
-33,
28,
-2,
25,
-20,
-1,
7,
1,
-39,
28,
37,
-30,
-5,
-7,
17,
13,
-9,
-10,
-5,
2,
2,
-5,
-7,
-10,
16,
29,
-16,
22,
-9,
71,
0,
7,
15,
20,
-11,
8,
3,
-13,
-29,
18,
14,
-11,
3,
-25,
4,
43,
8,
45,
33,
16,
-10,
-3,
65,
-11,
-30,
56,
29,
18,
27,
27,
26,
16,
22,
2,
17,
11,
20,
24,
-34,
15,
9,
-41,
-20,
-4,
23,
18,
12,
12,
-25,
-33,
-23,
23,
5,
0,
-35,
13,
36,
-34,
10,
5,
7,
-14,
-33,
13,
5,
-32,
5,
-11,
25,
-10,
-2,
-9,
-11,
-9,
6,
12,
27,
21,
8,
-16,
7,
-6,
-22,
-21,
5,
3,
-12,
11,
-16,
15,
12,
16,
-5,
24,
11,
26,
32,
26,
-39,
9,
28,
30,
7,
21,
-8,
0,
16,
12,
7,
3,
-5,
29,
19,
27,
-48,
-9,
48,
18,
-36,
-27,
-3,
7,
8,
44,
-24,
-3,
0,
-23,
22,
25,
-10,
5,
-25,
20,
6,
27,
13,
-3,
-1,
-20,
-18,
-11,
-18,
-31,
6,
21,
22,
-49,
12,
22,
5,
-23,
-50,
11,
30,
-16,
18,
-15,
8,
7,
17,
27,
-11,
17,
4,
-7,
-32,
-27,
40,
31,
-33,
35,
-2,
-58,
7,
36,
5,
19,
-3,
-28,
-2,
3,
-7,
-38,
1,
23,
22,
-29,
-10,
3,
32,
-11,
-15,
15,
7,
15,
19,
14,
-1,
-29,
-8,
14,
-7,
17,
6,
16,
-2,
-14,
-10,
3,
32,
1,
17,
6,
0,
-43,
-16,
8,
-18,
18,
6,
-43,
-27,
9,
-26,
-25,
69,
-14,
-1,
-23,
10,
-13,
23,
-4,
14,
-18,
27,
32,
24,
3,
-11,
-19,
51,
20,
-6,
15,
1,
29,
16,
-31,
3,
-30,
43,
1,
-20,
-10,
-9,
-5,
24,
17,
-1,
13,
13,
-19,
10,
26,
-8,
18,
14,
5,
21,
16,
10,
12,
12,
17,
-15,
3,
-64,
22,
30,
-19,
-9,
6,
-25,
-16,
2,
-34,
5,
-16,
3,
-9,
15,
-36,
23,
-15,
-30,
-23,
45,
18,
3,
-2,
5,
15,
-13,
5,
11,
0,
17,
-5,
11,
24,
17,
20,
-36,
-14,
24,
-13,
-28,
-14,
10,
-56,
6,
-4,
-3,
-31,
8,
6,
30,
21,
-12,
-14,
11,
17,
26,
-16,
-38,
-6,
-47,
-8,
-11,
-8,
-14,
19,
5,
26,
16,
9,
-5,
70,
35,
-6,
24,
-31,
-93,
13,
-18,
-30,
-27,
12,
-1,
-6,
-35,
12,
18,
16,
23,
-12,
23,
12,
-15,
-12,
13,
19,
-47,
-21,
22,
24,
4,
12,
-37,
15,
28,
-15,
5,
-19,
-32,
-2,
-52,
18,
-16,
-9,
-23,
-11,
15,
6,
-9,
-5,
28,
4,
-9,
27,
-3,
-7,
-35,
13,
-19,
-24,
-35,
-3,
-27,
18,
14,
28,
41,
33,
-3,
-11,
-5,
-5,
-2,
39,
-32,
-25,
42,
38,
-52,
-13,
12,
-28,
-44,
35,
-3,
27,
18,
-11,
22,
-7,
-28,
56,
-3,
-3,
-5,
3,
1,
25,
37,
2,
-58,
-17,
1,
58,
7,
11,
7,
-28,
23,
4,
-2,
-1,
-3,
14,
-22,
12,
36,
17,
22,
2,
2,
-11,
24,
13,
-22,
-33,
-10,
-7,
35,
16,
15,
-7,
52,
-10,
16,
0,
-12,
9,
-2,
-5,
-10,
4,
-3,
-24,
-75,
-41,
-5,
7,
1,
-18,
-44,
-20,
29,
-8,
-10,
-30,
-2,
-24,
-5,
-10,
1,
3,
18,
-118,
-5,
13,
-20,
10,
13,
-20,
5,
-7,
12,
-25,
-2,
-7,
17,
31,
-8,
21,
5,
9,
-57,
32,
54,
-36,
-13,
13,
14,
-48,
28,
-24,
-31,
4,
-5,
-54,
4,
32,
-49,
-47,
-91,
-26,
9,
-26,
60,
24,
34,
38,
22,
-9,
-23,
-27,
1,
-3,
7,
-12,
14,
20,
-27,
-5,
2,
12,
20,
8,
0,
11,
61,
12,
-1,
24,
10,
12,
5,
12,
11,
7,
6,
-16,
10,
21,
-14,
-20,
7,
29,
-29,
-14,
8,
30,
-5,
-6,
41,
16,
-17,
-12,
2,
-10,
-14,
23,
26,
-6,
1,
-16,
13,
-22,
-19,
-10,
20,
26,
13,
6,
9,
-44,
-8,
11,
41,
-6,
12,
6,
0,
19,
11,
15,
-39,
17,
-23,
6,
-14,
-29,
21,
19,
-6,
-73,
-10,
-35,
-18,
8,
37,
4,
27,
7,
8,
18,
9,
-7,
2,
33,
20,
-7,
16,
8,
18,
27,
43,
-17,
-43,
10,
29,
-20,
23,
-14,
-3,
-32,
0,
-18,
15,
-22,
-15,
4,
-24,
-19,
4,
9,
-5,
-31,
61,
38,
-11,
22,
-48,
-21,
17,
2,
25,
21,
-16,
5,
-15,
10,
-32,
-8,
17,
6,
7,
-14,
-2,
-11,
62,
-14,
2,
-55,
73,
10,
7,
25,
16,
22,
62,
15,
5,
16,
11,
-3,
39,
18,
11,
27,
-10,
17,
3,
9,
-5,
-6,
20,
6,
4,
-17,
-20,
14,
10,
47,
-36,
19,
16,
-11,
-1,
33,
90,
4,
0,
4,
29,
7,
10,
13,
11,
0,
-42,
-3,
-45,
18,
14,
3,
-67,
11,
0,
35,
8,
30,
29,
-13,
-11,
-3,
-44,
-6,
24,
-19,
58,
-52,
11,
25,
3,
-12,
-15,
30,
29,
21,
7,
8,
-6,
-18,
10,
-27,
65,
11,
-15,
25,
28,
2,
3,
5,
-15,
5,
5,
-31,
-22,
2,
-27,
4,
-16,
32,
-22,
-36,
-2,
80,
1,
11,
23,
-14,
21,
-31,
10,
-8,
2,
19,
-6,
-20,
-2,
-81,
29,
-25,
-20,
35,
0,
9,
52,
-61,
31,
17,
65,
6,
31,
30,
-10,
1,
68,
-16,
-11,
6,
24,
11,
71,
19,
-27,
23,
11,
5,
-1,
-15,
-19,
19,
-1,
-24,
17,
8,
-13,
36,
26,
42,
13,
10,
-12,
-25,
-3,
6,
72,
19,
38,
3,
-15,
22,
-14,
13,
11,
19,
-61,
12,
-62,
34,
-45,
-4,
-33,
40,
-18,
-6,
-71,
15,
35,
1,
3,
8,
-21,
16,
0,
-11,
13,
-38,
-3,
22,
40,
-30,
20,
15,
17,
-26,
-12,
-26,
13,
14,
31,
-19,
14,
2,
-27,
13,
32,
10,
10,
36,
-36,
0,
17,
-34,
22,
28,
-6,
-27,
-31,
2,
2,
-17,
-49,
32,
34,
-35,
25,
7,
4,
12,
37,
9,
21,
19,
-39,
27,
14,
-6,
15,
8,
-1,
19,
2,
-10,
-20,
-22,
29,
-22,
-26,
28,
-9,
11,
18,
11,
23,
-19,
-17,
-7,
8,
2,
-17,
12,
-56,
30,
16,
-17,
0,
10,
-55,
29,
5,
-31,
3,
33,
17,
19,
19,
-37,
5,
-4,
-31,
12,
22,
18,
19,
-1,
-14,
-15,
-10,
29,
22,
29,
24,
-13,
-9,
14,
18,
27,
-33,
0,
-10,
-17,
18,
-3,
-16,
20,
-2,
-102,
-24,
-2,
11,
19,
23,
-19,
14,
3,
39,
-1,
27,
-16,
-4,
-31,
28,
-30,
-34,
-13,
1,
7,
56,
13,
-42,
-52,
17,
-47,
-31,
11,
-22,
-12,
-13,
22,
-5,
10,
-9,
4,
-61,
11,
9,
16,
16,
-2,
7,
8,
19,
15,
-32,
11,
31,
20,
-1,
2,
-5,
-6,
-22,
24,
6,
-27,
-36,
22,
27,
0,
-46,
8,
-40,
-40,
5,
19,
4,
9,
5,
12,
-7,
4,
13,
-14,
16,
-29,
11,
-20,
9,
-6,
-51,
-40,
13,
0,
-63,
6,
2,
28,
13,
-14,
31,
37,
13,
7,
11,
-24,
-11,
28,
37,
54,
12,
3,
-61,
-7,
-3,
12,
-15,
6,
-14,
9,
4,
8,
-14,
-18,
17,
-8,
32,
-5,
32,
-3,
12,
9,
-43,
5,
17,
16,
3,
14,
25,
19,
-29,
4,
-45,
22,
-9,
3,
37,
8,
-12,
-19,
-5,
-41,
8,
-28,
4,
2,
-41,
-7,
7,
-7,
-37,
17,
-23,
-13,
-14,
-10,
-27,
-4,
-15,
18,
-3,
29,
30,
-1,
-1,
-7,
2,
44,
-64,
6,
16,
-75,
22,
38,
-16,
-2,
-17,
-12,
6,
-6,
-31,
-4,
1,
34,
12,
-4,
21,
5,
16,
-14,
20,
3,
11,
40,
-13,
-12,
6,
19,
35,
8,
-13,
14,
-65,
20,
25,
-13,
-6,
5,
32,
-18,
0,
11,
43,
-27,
29,
-38,
-15,
30,
-13,
-2,
-18,
18,
-31,
24,
-20,
11,
-12,
12,
38,
9,
-8,
5,
2,
-37,
16,
26,
31,
-28,
19,
44,
0,
-12,
-4,
3,
-20,
17,
-1,
6,
9,
-16,
25,
-17,
-46,
24,
6,
-1,
22,
22,
29,
0,
16,
25,
5,
2,
-26,
-6,
-7,
60,
20,
8,
32,
4,
-9,
-9,
-19,
6,
23,
-4,
-25,
-12,
9,
-6,
-14,
-20,
-12,
-5,
-11,
-34,
-13,
8,
-41,
13,
16,
-13,
9,
-1,
35,
-15,
-19,
-1,
-40,
14,
14,
-14,
11,
-41,
6,
12,
6,
15,
25,
18,
33,
-4,
-11,
-1,
51,
-10,
12,
46,
23,
81,
16,
19,
12,
22,
-2,
0,
19,
-17,
-8,
5,
-13,
33,
-24,
9,
56,
27,
0,
42,
8,
3,
-13,
-11,
-12,
0,
4,
-7,
-6,
-12,
16,
50,
30,
-13,
6,
-19,
-12,
-11,
20,
-9,
41,
-61,
-3,
-6,
7,
-6,
11,
28,
13,
3,
20,
7,
-10,
6,
-6,
-12,
-9,
26,
60,
10,
6,
-39,
-13,
-12,
-2,
25,
19,
12,
21,
9,
26,
-11,
13,
-38,
-17,
33,
16,
17,
7,
8,
-24,
32,
37,
-17,
-37,
11,
37,
-17,
50,
-4,
-29,
-14,
-14,
15,
-17,
-5,
-31,
-30,
12,
-58,
17,
-47,
5,
1,
50,
30,
-3,
32,
12,
6,
-1,
-14,
22,
-2,
10,
27,
-2,
0,
-38,
64,
-34,
27,
-6,
-3,
-18,
-12,
-6,
-41,
20,
-25,
-30,
16,
31,
-8,
7,
9,
1,
22,
-30,
-27,
11,
17,
-29,
19,
1,
18,
-17,
24,
-5,
23,
30,
16,
18,
-62,
-8,
-37,
9,
20,
15,
-40,
-26,
30,
26,
14,
-6,
23,
-37,
9,
-1,
27,
-3,
15,
21,
11,
-3,
11,
15,
10,
-2,
-8,
-10,
40,
-35,
-21,
14,
-5,
9,
22,
-22,
39,
1,
2,
15,
-16,
7,
-6,
-49,
5,
-6,
28,
15,
44,
13,
-59,
-7,
54,
-45,
-11,
38,
-5,
3,
33,
1,
-5,
-66,
-12,
-7,
5,
12,
-22,
5,
29,
-20,
16,
28,
-37,
27,
20,
30,
-21,
-20,
-54,
-21,
-33,
-6,
89,
-34,
10,
21,
-13,
4,
38,
-3,
-7,
6,
25,
23,
-6,
7,
9,
10,
-21,
-59,
-5,
-48,
62,
7,
16,
7,
13,
-26,
-46,
-53,
-18,
41,
-13,
-7,
37,
-20,
8,
22,
3,
25,
-34,
-29,
3,
10,
7,
23,
5,
5,
0,
-24,
1,
-1,
-17,
13,
-4,
52,
15,
35,
41,
38,
-5,
13,
1,
26,
14,
18,
-56,
-30,
10,
-29,
-1,
-38,
-4,
26,
-8,
23,
-15,
39,
-67,
17,
-12,
17,
15,
8,
-8,
0,
36,
22,
-19,
-40,
-19,
23,
31,
10,
4,
-33,
-6,
16,
-67,
-40,
-33,
34,
6,
-39,
-52,
-29,
21,
7,
23,
11,
26,
-21,
-14,
7,
-38,
-11,
-18,
20,
26,
-7,
-24,
-3,
-1,
-18,
-26,
23,
29,
47,
32,
4,
-47,
22,
-2,
-55,
-42,
-73,
40,
-6,
-28,
37,
-22,
-38,
9,
-13,
8,
13,
-21,
-29,
-1,
18,
18,
21,
-39,
20,
10,
16,
14,
18,
7,
-5,
11,
34,
-12,
21,
-8,
-19,
-13,
17,
24,
15,
1,
36,
-32,
-1,
26,
4,
-8,
-22,
-43,
-14,
-1,
-23,
9,
-38,
42,
-26,
-1,
-33,
-9,
9,
-9,
-45,
41,
34,
1,
21,
-21,
17,
-13,
31,
-13,
-47,
-4,
-3,
9,
1,
-13,
27,
22,
-7,
21,
-2,
27,
-16,
-12,
0,
21,
-36,
-19,
10,
10,
-11,
24,
-16,
23,
10,
13,
-3,
21,
-31,
32,
21,
27,
-21,
0,
28,
-21,
6,
24,
-5,
-13,
10,
45,
8,
24,
23,
-14,
53,
11,
41,
45,
-29,
28,
-5,
-16,
-1,
-32,
-10,
22,
31,
-4,
18,
1,
0;