memory_initialization_radix=10;
memory_initialization_vector=
-58,
1,
-1,
45,
-72,
-48,
21,
29,
-107,
-83,
-10,
-81,
11,
48,
21,
3,
30,
-29,
-61,
-28,
5,
7,
-31,
-8,
27,
-57,
27,
21,
33,
-52,
-43,
-17,
20,
-33,
0,
40,
-6,
-47,
11,
-75,
70,
-21,
9,
23,
13,
-22,
37,
12,
9,
-3,
-18,
11,
4,
53,
31,
-66,
-47,
14,
-22,
38,
25,
-49,
-96,
6,
-50,
-17,
-17,
-1,
-12,
29,
-59,
-85,
55,
51,
-15,
-31,
18,
37,
-53,
-25,
14,
14,
50,
2,
19,
-14,
53,
9,
-11,
18,
9,
48,
-73,
56,
1,
26,
43,
-45,
26,
15,
-17,
44,
-16,
20,
17,
-26,
-7,
19,
-9,
-79,
-18,
27,
1,
-72,
-36,
31,
-46,
-83,
22,
0,
1,
-40,
-8,
18,
55,
-74,
11,
-6,
50,
-87,
-55,
-10,
-17,
37,
29,
-35,
17,
-3,
42,
-2,
14,
-10,
11,
4,
13,
-28,
-26,
38,
-40,
21,
-38,
23,
9,
-15,
41,
-88,
-43,
15,
-49,
-68,
-64,
-43,
-26,
18,
42,
-17,
35,
-27,
-30,
48,
-6,
-42,
37,
-66,
-9,
19,
3,
-22,
22,
-37,
8,
51,
33,
27,
34,
27,
-35,
33,
40,
-32,
-8,
-45,
-41,
20,
41,
-62,
28,
31,
-25,
-14,
-85,
-55,
35,
-35,
-51,
-40,
22,
-5,
-1,
-37,
-23,
-29,
69,
-1,
-21,
10,
13,
-57,
38,
-59,
-33,
4,
43,
19,
-21,
31,
56,
30,
-50,
33,
-7,
9,
-67,
46,
-40,
-61,
30,
-43,
-7,
34,
23,
21,
-17,
-17,
2,
0,
-9,
40,
28,
-19,
-30,
-16,
-31,
4,
-46,
37,
42,
11,
-29,
-24,
64,
-31,
-27,
-32,
-27,
-8,
-38,
37,
42,
-80,
-10,
-6,
27,
53,
20,
-13,
23,
46,
-20,
37,
-11,
51,
14,
50,
0,
-41,
-48,
-2,
46,
16,
32,
-23,
40,
31,
-85,
28,
-14,
-66,
-69,
0,
-7,
-24,
50,
-84,
15,
-10,
-3,
-38,
-40,
-34,
-30,
-84,
2,
-30,
46,
-72,
-32,
4,
57,
-29,
27,
-23,
37,
9,
41,
-79,
28,
40,
43,
16,
-17,
2,
13,
-9,
-4,
-5,
-15,
-42,
-26,
32,
-67,
37,
-39,
6,
-22,
-35,
10,
-65,
29,
38,
19,
32,
-80,
18,
53,
-70,
-31,
-16,
-33,
49,
-118,
-21,
37,
37,
-3,
23,
-11,
71,
-11,
20,
-63,
5,
-56,
-57,
6,
26,
-61,
-22,
-41,
28,
13,
58,
-97,
32,
52,
56,
38,
35,
32,
-88,
30,
-34,
-35,
33,
-11,
-70,
-2,
-65,
-47,
44,
23,
20,
-1,
-16,
-45,
35,
-39,
-27,
0,
2,
25,
9,
-5,
-34,
-23,
-1,
-57,
-101,
-38,
28,
-42,
-63,
-95,
15,
1,
-79,
41,
30,
-28,
50,
44,
-35,
-31,
-31,
-84,
27,
-65,
56,
38,
-18,
-7,
43,
-52,
-26,
51,
33,
2,
-38,
-35,
2,
-61,
-37,
25,
22,
35,
22,
2,
24,
3,
21,
-42,
36,
-1,
-77,
13,
3,
33,
-10,
53,
-65,
34,
46,
-31,
-39,
-61,
2,
11,
-19,
20,
-41,
11,
-18,
-36,
-22,
18,
-47,
46,
4,
-5,
46,
73,
37,
-67,
23,
-61,
-5,
-38,
25,
26,
-51,
-17,
-39,
-37,
42,
53,
-75,
3,
-42,
28,
-22,
71,
-2,
-7,
8,
28,
46,
33,
-2,
-50,
38,
-36,
47,
46,
-65,
29,
16,
-40,
30,
-15,
-66,
-20,
40,
-28,
40,
-59,
-58,
8,
-4,
19,
-56,
-37,
15,
11,
49,
-26,
-6,
-40,
11,
-68,
17,
-24,
40,
-32,
-30,
-30,
48,
-32,
-19,
-69,
-127,
-10,
-9,
16,
-10,
42,
27,
-5,
15,
10,
37,
27,
-40,
-47,
29,
-4,
16,
-51,
-87,
41,
2,
-88,
-5,
13,
-8,
-23,
-14,
-63,
43,
12,
-3,
47,
-49,
-41,
10,
15,
39,
-43,
5,
26,
-78,
-20,
45,
6,
38,
-34,
-26,
-14,
30,
-25,
34,
-50,
30,
-7,
3,
-3,
25,
-28,
6,
-61,
-33,
-60,
44,
34,
29,
4,
16,
8,
-51,
58,
-29,
-37,
-63,
-118,
-42,
21,
-11,
-53,
45,
-62,
24;